#ifndef SINE_MODEL_H
#define SINE_MODEL_H


unsigned int sine_model_len = 3168;
unsigned char sine_model[] = {
 0x1c, 0x00, 0x00, 0x00, 0x54, 0x46, 0x4c, 0x33, 0x14, 0x00, 0x20, 0x00,
  0x1c, 0x00, 0x18, 0x00, 0x14, 0x00, 0x10, 0x00, 0x0c, 0x00, 0x00, 0x00,
  0x08, 0x00, 0x04, 0x00, 0x14, 0x00, 0x00, 0x00, 0x1c, 0x00, 0x00, 0x00,
  0x90, 0x00, 0x00, 0x00, 0xe8, 0x00, 0x00, 0x00, 0x04, 0x07, 0x00, 0x00,
  0x14, 0x07, 0x00, 0x00, 0x0c, 0x0c, 0x00, 0x00, 0x03, 0x00, 0x00, 0x00,
  0x01, 0x00, 0x00, 0x00, 0x10, 0x00, 0x00, 0x00, 0x00, 0x00, 0x0a, 0x00,
  0x10, 0x00, 0x0c, 0x00, 0x08, 0x00, 0x04, 0x00, 0x0a, 0x00, 0x00, 0x00,
  0x0c, 0x00, 0x00, 0x00, 0x1c, 0x00, 0x00, 0x00, 0x38, 0x00, 0x00, 0x00,
  0x0f, 0x00, 0x00, 0x00, 0x73, 0x65, 0x72, 0x76, 0x69, 0x6e, 0x67, 0x5f,
  0x64, 0x65, 0x66, 0x61, 0x75, 0x6c, 0x74, 0x00, 0x01, 0x00, 0x00, 0x00,
  0x04, 0x00, 0x00, 0x00, 0x98, 0xff, 0xff, 0xff, 0x09, 0x00, 0x00, 0x00,
  0x04, 0x00, 0x00, 0x00, 0x07, 0x00, 0x00, 0x00, 0x64, 0x65, 0x6e, 0x73,
  0x65, 0x5f, 0x32, 0x00, 0x01, 0x00, 0x00, 0x00, 0x04, 0x00, 0x00, 0x00,
  0xc6, 0xf9, 0xff, 0xff, 0x04, 0x00, 0x00, 0x00, 0x0b, 0x00, 0x00, 0x00,
  0x64, 0x65, 0x6e, 0x73, 0x65, 0x5f, 0x69, 0x6e, 0x70, 0x75, 0x74, 0x00,
  0x02, 0x00, 0x00, 0x00, 0x34, 0x00, 0x00, 0x00, 0x04, 0x00, 0x00, 0x00,
  0xdc, 0xff, 0xff, 0xff, 0x0c, 0x00, 0x00, 0x00, 0x04, 0x00, 0x00, 0x00,
  0x13, 0x00, 0x00, 0x00, 0x43, 0x4f, 0x4e, 0x56, 0x45, 0x52, 0x53, 0x49,
  0x4f, 0x4e, 0x5f, 0x4d, 0x45, 0x54, 0x41, 0x44, 0x41, 0x54, 0x41, 0x00,
  0x08, 0x00, 0x0c, 0x00, 0x08, 0x00, 0x04, 0x00, 0x08, 0x00, 0x00, 0x00,
  0x0b, 0x00, 0x00, 0x00, 0x04, 0x00, 0x00, 0x00, 0x13, 0x00, 0x00, 0x00,
  0x6d, 0x69, 0x6e, 0x5f, 0x72, 0x75, 0x6e, 0x74, 0x69, 0x6d, 0x65, 0x5f,
  0x76, 0x65, 0x72, 0x73, 0x69, 0x6f, 0x6e, 0x00, 0x0d, 0x00, 0x00, 0x00,
  0x18, 0x06, 0x00, 0x00, 0x10, 0x06, 0x00, 0x00, 0xc0, 0x05, 0x00, 0x00,
  0xa4, 0x05, 0x00, 0x00, 0x54, 0x05, 0x00, 0x00, 0x04, 0x05, 0x00, 0x00,
  0xf4, 0x00, 0x00, 0x00, 0xa4, 0x00, 0x00, 0x00, 0x9c, 0x00, 0x00, 0x00,
  0x94, 0x00, 0x00, 0x00, 0x8c, 0x00, 0x00, 0x00, 0x6c, 0x00, 0x00, 0x00,
  0x04, 0x00, 0x00, 0x00, 0x72, 0xfa, 0xff, 0xff, 0x04, 0x00, 0x00, 0x00,
  0x58, 0x00, 0x00, 0x00, 0x0c, 0x00, 0x00, 0x00, 0x08, 0x00, 0x0e, 0x00,
  0x08, 0x00, 0x04, 0x00, 0x08, 0x00, 0x00, 0x00, 0x10, 0x00, 0x00, 0x00,
  0x28, 0x00, 0x00, 0x00, 0x00, 0x00, 0x06, 0x00, 0x08, 0x00, 0x04, 0x00,
  0x06, 0x00, 0x00, 0x00, 0x04, 0x00, 0x00, 0x00, 0x01, 0x00, 0x00, 0x00,
  0xea, 0x03, 0x00, 0x00, 0x00, 0x00, 0x0a, 0x00, 0x10, 0x00, 0x0c, 0x00,
  0x08, 0x00, 0x04, 0x00, 0x0a, 0x00, 0x00, 0x00, 0x02, 0x00, 0x00, 0x00,
  0x02, 0x00, 0x00, 0x00, 0x04, 0x00, 0x00, 0x00, 0x06, 0x00, 0x00, 0x00,
  0x32, 0x2e, 0x31, 0x34, 0x2e, 0x30, 0x00, 0x00, 0xd6, 0xfa, 0xff, 0xff,
  0x04, 0x00, 0x00, 0x00, 0x10, 0x00, 0x00, 0x00, 0x31, 0x2e, 0x35, 0x2e,
  0x30, 0x00, 0x00, 0x00, 0x00, 0x00, 0x00, 0x00, 0x00, 0x00, 0x00, 0x00,
  0xc0, 0xf5, 0xff, 0xff, 0xc4, 0xf5, 0xff, 0xff, 0xc8, 0xf5, 0xff, 0xff,
  0xfe, 0xfa, 0xff, 0xff, 0x04, 0x00, 0x00, 0x00, 0x40, 0x00, 0x00, 0x00,
  0xb0, 0xda, 0x7f, 0x3e, 0xa4, 0xdc, 0x36, 0xbe, 0xff, 0xe6, 0x8e, 0xbd,
  0x28, 0x5a, 0x34, 0x3e, 0xda, 0x72, 0x37, 0x3f, 0x55, 0x30, 0x67, 0x3f,
  0x14, 0x65, 0xa9, 0xbe, 0x89, 0xe9, 0x78, 0xbe, 0xff, 0x4e, 0x12, 0x3f,
  0x10, 0x55, 0x63, 0xbf, 0x44, 0xb6, 0xb6, 0x3e, 0xf8, 0xd8, 0x46, 0x3f,
  0xfa, 0x3b, 0xbb, 0x3d, 0x54, 0x81, 0xeb, 0x3f, 0xbd, 0x66, 0x3c, 0xbf,
  0xcb, 0xe3, 0x19, 0x3f, 0x4a, 0xfb, 0xff, 0xff, 0x04, 0x00, 0x00, 0x00,
  0x00, 0x04, 0x00, 0x00, 0x9c, 0xee, 0x21, 0x3c, 0x56, 0x56, 0x74, 0x3e,
  0x62, 0x79, 0x63, 0x3e, 0x80, 0xa1, 0x16, 0x3c, 0x9b, 0xca, 0xbf, 0xbe,
  0x5d, 0x46, 0xab, 0x3e, 0x8e, 0xba, 0x15, 0x3e, 0xf4, 0x5c, 0x9d, 0x3d,
  0x2c, 0x38, 0xe6, 0x3d, 0x00, 0x53, 0x3a, 0xbc, 0xd4, 0xd5, 0xc3, 0x3d,
  0x21, 0x88, 0x94, 0x3e, 0x50, 0x93, 0x66, 0x3d, 0x08, 0xd1, 0x5e, 0xbe,
  0x1c, 0xc0, 0xbd, 0xbe, 0xed, 0xb7, 0x99, 0x3c, 0x8d, 0xb5, 0x9e, 0x3d,
  0xc0, 0x5a, 0x2c, 0x3e, 0x3e, 0xff, 0x6a, 0x3e, 0x27, 0xec, 0x3d, 0xbd,
  0x2c, 0xef, 0x20, 0x3d, 0x2c, 0xfb, 0x12, 0xbf, 0xe8, 0x5c, 0x45, 0x3d,
  0x3e, 0xc9, 0x6e, 0x3e, 0x93, 0x13, 0x63, 0xbe, 0x4e, 0x6c, 0x33, 0x3e,
  0x61, 0xbf, 0x5f, 0xbe, 0x40, 0x6d, 0xe8, 0xbd, 0xa4, 0x65, 0xe1, 0x3d,
  0xc9, 0x18, 0xd9, 0x3e, 0xfe, 0xbb, 0x85, 0x3e, 0x5a, 0xf5, 0xf4, 0x3d,
  0xd2, 0xe1, 0x8b, 0xbd, 0x15, 0x4b, 0xae, 0xbd, 0x53, 0x50, 0xda, 0xbe,
  0x84, 0x08, 0x5f, 0xbd, 0xaa, 0xbb, 0x77, 0xbe, 0x2a, 0xb8, 0x89, 0xbe,
  0xe7, 0x86, 0x85, 0x3e, 0xde, 0xd1, 0x85, 0xbe, 0xd2, 0x49, 0xd8, 0xbe,
  0x3a, 0x27, 0x38, 0x3e, 0xc4, 0xae, 0xc3, 0xbe, 0xb7, 0xd4, 0xab, 0x3e,
  0xe4, 0xbb, 0xeb, 0x3d, 0xb8, 0x2c, 0x17, 0x3d, 0xa2, 0x60, 0x7f, 0x3e,
  0x48, 0x4b, 0x66, 0x3d, 0x50, 0x03, 0x95, 0x3c, 0x77, 0x55, 0xc0, 0x3e,
  0xcd, 0x89, 0xcc, 0x3e, 0xe0, 0x3c, 0x60, 0xbc, 0x0a, 0xd6, 0x34, 0xbe,
  0xe6, 0x08, 0x38, 0x3e, 0x0a, 0xd3, 0x60, 0x3e, 0x80, 0x46, 0x0d, 0xbc,
  0xf9, 0x1f, 0xb5, 0xbe, 0x3a, 0x49, 0x7f, 0x3e, 0x54, 0xb2, 0xd2, 0xbd,
  0xa9, 0x87, 0xd0, 0xbe, 0x5c, 0x38, 0xb9, 0x3d, 0x64, 0xba, 0xbe, 0x3d,
  0x39, 0xa1, 0x88, 0xbe, 0x8e, 0xe7, 0x96, 0xbe, 0x32, 0x6f, 0x6b, 0x3e,
  0x82, 0xc8, 0x1c, 0xbf, 0x35, 0xa2, 0xd5, 0xbe, 0xb6, 0xeb, 0x22, 0xbf,
  0x8f, 0xe3, 0xc8, 0x3e, 0x70, 0x0d, 0xb8, 0xbe, 0x17, 0xcb, 0xbf, 0x3e,
  0x9d, 0x31, 0xc9, 0x3e, 0xc8, 0x10, 0x43, 0xbe, 0x70, 0xe3, 0x1c, 0xbd,
  0xa1, 0x79, 0x9f, 0x3e, 0x76, 0xf5, 0x09, 0x3e, 0x67, 0xa4, 0xbe, 0xbe,
  0xff, 0x54, 0x9f, 0xbe, 0xa4, 0xb0, 0xf0, 0xbe, 0x42, 0x2b, 0xd7, 0x3e,
  0x3b, 0xe0, 0x28, 0xbe, 0x7f, 0x3a, 0x0a, 0xbe, 0x6a, 0x40, 0x22, 0x3e,
  0x69, 0x7c, 0xfb, 0xbe, 0x8b, 0xe6, 0xe4, 0x3e, 0x1f, 0x13, 0x2f, 0xbf,
  0xf1, 0xc4, 0xb3, 0x3e, 0x52, 0x3f, 0xa2, 0xbe, 0x29, 0xcc, 0x68, 0xbe,
  0x7a, 0x81, 0x57, 0x3e, 0x90, 0x93, 0x84, 0x3c, 0xd5, 0x01, 0x94, 0x3e,
  0xaa, 0xc4, 0x30, 0x3e, 0x06, 0x4c, 0x0c, 0x3e, 0x40, 0x6a, 0xf6, 0xbd,
  0xc8, 0xdf, 0x03, 0x3e, 0x35, 0x9e, 0x3b, 0xbe, 0xc3, 0x57, 0x41, 0x3e,
  0xa2, 0x39, 0x8c, 0xbe, 0x8d, 0xb3, 0xaf, 0x3e, 0x34, 0x2f, 0xf5, 0x3e,
  0x7a, 0x54, 0x2e, 0xbf, 0x0a, 0xa3, 0x08, 0xbe, 0x92, 0x49, 0xdc, 0xbe,
  0xf9, 0xf5, 0x4e, 0xbe, 0xf4, 0x86, 0x79, 0xbe, 0x4e, 0x39, 0xba, 0xbe,
  0x24, 0xce, 0xb8, 0x3d, 0x40, 0xcf, 0xb3, 0xbe, 0xa9, 0xe0, 0xa5, 0x3e,
  0x4e, 0xe9, 0x30, 0x3d, 0xcf, 0xa3, 0xf2, 0x3c, 0xd9, 0x14, 0xd9, 0x3c,
  0xb3, 0x13, 0x41, 0x3e, 0x68, 0xf5, 0x2d, 0x3d, 0xf5, 0x12, 0x16, 0xbf,
  0x11, 0x10, 0x8d, 0x3e, 0xb0, 0xf5, 0x3b, 0xbf, 0x5a, 0x02, 0x5a, 0x3e,
  0x96, 0x8a, 0x30, 0x3e, 0xe1, 0x1d, 0xd4, 0x3e, 0x79, 0x65, 0xc4, 0x3e,
  0x7a, 0xfc, 0x0c, 0xbe, 0x7f, 0x9b, 0x80, 0x3e, 0x46, 0x84, 0x49, 0x3e,
  0x98, 0xc3, 0x44, 0xbd, 0x79, 0x87, 0xd1, 0xbd, 0xd8, 0x85, 0x7c, 0x3e,
  0x53, 0x8d, 0x84, 0x3e, 0x88, 0xa3, 0xe8, 0xbd, 0x00, 0x3e, 0xd1, 0xbd,
  0xd1, 0x80, 0xc8, 0x3d, 0x63, 0xa6, 0x86, 0x3e, 0x2f, 0xd9, 0x02, 0xbf,
  0x76, 0x1b, 0x38, 0x3e, 0x14, 0xe1, 0xbd, 0xbd, 0x0a, 0x4f, 0x89, 0xbe,
  0x31, 0x62, 0x80, 0xbe, 0x68, 0x7d, 0x5e, 0xbe, 0xb7, 0x39, 0x96, 0x3e,
  0x60, 0xa3, 0xc1, 0xbe, 0xef, 0xb9, 0xaf, 0x3e, 0x7e, 0xf4, 0xdc, 0xbe,
  0xc7, 0x10, 0x2f, 0xbe, 0x20, 0x1d, 0x5a, 0xbe, 0xd5, 0x84, 0x0a, 0x3e,
  0x04, 0xc5, 0x93, 0x3d, 0xf5, 0xf0, 0x1f, 0xbe, 0xf5, 0xec, 0xab, 0xbe,
  0x28, 0x1f, 0x6a, 0xbe, 0x50, 0x8c, 0x39, 0x3d, 0x5b, 0xa2, 0xd8, 0x3e,
  0x2c, 0xca, 0x2f, 0xbe, 0xfb, 0x0a, 0x8f, 0x3e, 0x24, 0xbb, 0x8e, 0xbe,
  0xc3, 0x1b, 0xd4, 0x3e, 0xa2, 0xae, 0x20, 0xbe, 0x16, 0x18, 0x64, 0x3e,
  0x02, 0x8d, 0x04, 0xbf, 0x62, 0x18, 0x16, 0x3f, 0xb7, 0xd0, 0xc9, 0x3d,
  0x43, 0x50, 0xdc, 0xbd, 0x94, 0xa8, 0xd7, 0x3d, 0x75, 0xe2, 0x9c, 0xbe,
  0x9b, 0xbc, 0x2d, 0xbb, 0xc9, 0xb6, 0x3e, 0xbf, 0x90, 0xb0, 0x4d, 0xbe,
  0xb6, 0x75, 0x3b, 0x3e, 0xdf, 0x05, 0xcc, 0x3e, 0xc8, 0x2d, 0x6c, 0x3d,
  0x82, 0xd1, 0x38, 0xbe, 0xd1, 0x41, 0x96, 0x3e, 0x70, 0x11, 0xd6, 0x3c,
  0xd1, 0x24, 0xc4, 0x3e, 0xae, 0x19, 0x15, 0xbd, 0x51, 0x4d, 0x59, 0x3e,
  0x65, 0x76, 0xad, 0xbd, 0xb2, 0x97, 0xe3, 0xbe, 0xe1, 0x0f, 0xbf, 0x3e,
  0x68, 0xbe, 0x2e, 0xbe, 0x67, 0x7b, 0xe7, 0x3e, 0x5a, 0xbf, 0x69, 0xbf,
  0xab, 0xd1, 0x8d, 0x3e, 0x9c, 0x9b, 0x6b, 0xbe, 0x78, 0x85, 0xd2, 0xbd,
  0xa5, 0x21, 0x97, 0xbe, 0xa0, 0xac, 0x97, 0xbe, 0x6b, 0xcb, 0xd4, 0x3e,
  0xc0, 0x5b, 0x8d, 0xbc, 0xae, 0x94, 0x6f, 0x3e, 0x51, 0x24, 0x4b, 0xbe,
  0x1c, 0xc0, 0xe7, 0x3d, 0x64, 0xe3, 0xdf, 0x3c, 0xff, 0xae, 0x9c, 0x3e,
  0x7d, 0x50, 0xa6, 0xbe, 0x24, 0x42, 0xe1, 0x3d, 0xfa, 0xaf, 0x69, 0xbe,
  0xf6, 0x24, 0x31, 0x3e, 0x54, 0x8c, 0xf4, 0x3d, 0xb0, 0xda, 0x80, 0x3c,
  0x28, 0x97, 0x0b, 0xbe, 0x2d, 0x89, 0xa7, 0x3e, 0xa2, 0xd2, 0x0f, 0xbe,
  0xb3, 0x47, 0x59, 0xbe, 0xf4, 0xd0, 0xc0, 0xbd, 0x85, 0xa8, 0xab, 0x3e,
  0x8d, 0x71, 0x95, 0xbe, 0x96, 0xb2, 0x3b, 0x3d, 0x7d, 0x54, 0x16, 0x3e,
  0x66, 0x00, 0x86, 0x3e, 0xe4, 0x5f, 0xd0, 0xbe, 0x9c, 0x1c, 0xc1, 0x3e,
  0x17, 0x43, 0xa0, 0xbb, 0xdf, 0x50, 0x60, 0x3f, 0xe4, 0x8e, 0xa8, 0x3d,
  0x70, 0x4a, 0xb6, 0x3c, 0x5a, 0x5a, 0x01, 0xbe, 0x30, 0x91, 0x86, 0x3c,
  0xeb, 0x89, 0x99, 0x3e, 0x3a, 0xa7, 0x6d, 0x3e, 0xb3, 0x5d, 0xd5, 0x3e,
  0x3e, 0x97, 0x62, 0x3e, 0xe8, 0xba, 0x91, 0x3c, 0x1a, 0xbe, 0x16, 0xbf,
  0xec, 0x00, 0xed, 0xbe, 0xeb, 0xd3, 0x66, 0x3d, 0x06, 0xda, 0x4a, 0x3e,
  0x59, 0x2e, 0xf8, 0xbe, 0xb0, 0x4b, 0x00, 0x3e, 0x37, 0x46, 0x9b, 0xbd,
  0x18, 0x3d, 0x1e, 0xbd, 0x55, 0xaf, 0xcb, 0x3e, 0xd1, 0xdd, 0x46, 0xbe,
  0xfb, 0xd4, 0x9f, 0x3e, 0x1b, 0xd4, 0xa8, 0xbe, 0xa0, 0x6d, 0x07, 0xbc,
  0x14, 0xf9, 0x8d, 0xbd, 0xc8, 0x24, 0xf7, 0xbd, 0xb8, 0x8c, 0x16, 0xbf,
  0x6f, 0x8a, 0x14, 0x3f, 0xba, 0x53, 0x8c, 0x3d, 0xf8, 0x91, 0x05, 0xbf,
  0xbc, 0xfc, 0xf9, 0x3d, 0x20, 0xf7, 0x53, 0xbe, 0x77, 0xe3, 0x3c, 0x3e,
  0x25, 0x3c, 0x4c, 0xbf, 0x3a, 0x51, 0x15, 0xbe, 0x00, 0x2e, 0x44, 0xba,
  0x90, 0x2a, 0xa8, 0xbd, 0xd4, 0x3a, 0xd3, 0x3d, 0x17, 0x11, 0xd2, 0xbe,
  0x9f, 0xf3, 0x89, 0x3e, 0x90, 0xa8, 0xc2, 0xbd, 0x08, 0xbe, 0x8a, 0xbd,
  0x57, 0x37, 0x02, 0xbe, 0xa9, 0x94, 0xb0, 0x3e, 0x56, 0xff, 0xff, 0xff,
  0x04, 0x00, 0x00, 0x00, 0x40, 0x00, 0x00, 0x00, 0x2c, 0xf7, 0xdd, 0x3e,
  0x22, 0x45, 0xaa, 0x3e, 0x6f, 0xe7, 0xe8, 0xbe, 0x22, 0x18, 0x8d, 0x3e,
  0x83, 0x5c, 0xf4, 0x3e, 0x38, 0x6e, 0x42, 0x3e, 0x3e, 0x67, 0x0b, 0xbf,
  0x11, 0xed, 0xb1, 0xbe, 0x7e, 0x40, 0x05, 0xbf, 0x46, 0x11, 0x1c, 0xbe,
  0xe4, 0xca, 0x04, 0xbf, 0xa0, 0x30, 0x51, 0xbe, 0x4c, 0x93, 0x08, 0xbe,
  0xa6, 0x16, 0xe2, 0xbe, 0xd6, 0xca, 0x0f, 0x3f, 0x98, 0x20, 0xb6, 0x3d,
  0xa2, 0xff, 0xff, 0xff, 0x04, 0x00, 0x00, 0x00, 0x40, 0x00, 0x00, 0x00,
  0xfc, 0xd9, 0x3c, 0xbd, 0x6c, 0xb5, 0x9f, 0xbe, 0x00, 0x00, 0x00, 0x00,
  0xde, 0x90, 0xb7, 0xbe, 0x57, 0x5d, 0x5c, 0x3e, 0x53, 0x7b, 0x06, 0xbf,
  0x00, 0x00, 0x00, 0x00, 0x00, 0x00, 0x00, 0x00, 0x00, 0x00, 0x00, 0x00,
  0x00, 0x00, 0x00, 0x00, 0x00, 0x00, 0x00, 0x00, 0x00, 0x00, 0x00, 0x00,
  0x00, 0x00, 0x00, 0x00, 0x00, 0x00, 0x00, 0x00, 0x1f, 0x89, 0x90, 0xbe,
  0x1c, 0x3e, 0x31, 0x3f, 0xee, 0xff, 0xff, 0xff, 0x04, 0x00, 0x00, 0x00,
  0x04, 0x00, 0x00, 0x00, 0xae, 0x81, 0x9b, 0xbe, 0x00, 0x00, 0x06, 0x00,
  0x08, 0x00, 0x04, 0x00, 0x06, 0x00, 0x00, 0x00, 0x04, 0x00, 0x00, 0x00,
  0x40, 0x00, 0x00, 0x00, 0x38, 0x68, 0x40, 0xbb, 0x33, 0x00, 0x0b, 0x3e,
  0xae, 0xdc, 0x0c, 0xbc, 0x00, 0x00, 0x00, 0x00, 0xa9, 0x98, 0x75, 0x3e,
  0x89, 0x69, 0x49, 0x3e, 0xf9, 0xf9, 0xe3, 0x3d, 0x51, 0x6a, 0x4a, 0x3d,
  0xcd, 0x00, 0x7a, 0x3e, 0xcc, 0x2d, 0xa8, 0x3e, 0xa3, 0xd8, 0x3e, 0x3e,
  0x42, 0x21, 0x6b, 0x3e, 0xd1, 0x1e, 0x88, 0xbb, 0xa7, 0x61, 0x41, 0xbf,
  0x16, 0xe0, 0x90, 0x3e, 0xb6, 0xa9, 0x71, 0x3e, 0x20, 0xfb, 0xff, 0xff,
  0x24, 0xfb, 0xff, 0xff, 0x0f, 0x00, 0x00, 0x00, 0x4d, 0x4c, 0x49, 0x52,
  0x20, 0x43, 0x6f, 0x6e, 0x76, 0x65, 0x72, 0x74, 0x65, 0x64, 0x2e, 0x00,
  0x01, 0x00, 0x00, 0x00, 0x14, 0x00, 0x00, 0x00, 0x00, 0x00, 0x0e, 0x00,
  0x18, 0x00, 0x14, 0x00, 0x10, 0x00, 0x0c, 0x00, 0x08, 0x00, 0x04, 0x00,
  0x0e, 0x00, 0x00, 0x00, 0x14, 0x00, 0x00, 0x00, 0x1c, 0x00, 0x00, 0x00,
  0xd8, 0x00, 0x00, 0x00, 0xdc, 0x00, 0x00, 0x00, 0xe0, 0x00, 0x00, 0x00,
  0x04, 0x00, 0x00, 0x00, 0x6d, 0x61, 0x69, 0x6e, 0x00, 0x00, 0x00, 0x00,
  0x03, 0x00, 0x00, 0x00, 0x80, 0x00, 0x00, 0x00, 0x38, 0x00, 0x00, 0x00,
  0x04, 0x00, 0x00, 0x00, 0x9a, 0xff, 0xff, 0xff, 0x10, 0x00, 0x00, 0x00,
  0x00, 0x00, 0x00, 0x08, 0x0c, 0x00, 0x00, 0x00, 0x10, 0x00, 0x00, 0x00,
  0x9c, 0xfb, 0xff, 0xff, 0x01, 0x00, 0x00, 0x00, 0x09, 0x00, 0x00, 0x00,
  0x03, 0x00, 0x00, 0x00, 0x08, 0x00, 0x00, 0x00, 0x06, 0x00, 0x00, 0x00,
  0x02, 0x00, 0x00, 0x00, 0xca, 0xff, 0xff, 0xff, 0x10, 0x00, 0x00, 0x00,
  0x00, 0x00, 0x00, 0x08, 0x10, 0x00, 0x00, 0x00, 0x14, 0x00, 0x00, 0x00,
  0xba, 0xff, 0xff, 0xff, 0x00, 0x00, 0x00, 0x01, 0x01, 0x00, 0x00, 0x00,
  0x08, 0x00, 0x00, 0x00, 0x03, 0x00, 0x00, 0x00, 0x07, 0x00, 0x00, 0x00,
  0x05, 0x00, 0x00, 0x00, 0x01, 0x00, 0x00, 0x00, 0x00, 0x00, 0x0e, 0x00,
  0x16, 0x00, 0x00, 0x00, 0x10, 0x00, 0x0c, 0x00, 0x0b, 0x00, 0x04, 0x00,
  0x0e, 0x00, 0x00, 0x00, 0x18, 0x00, 0x00, 0x00, 0x00, 0x00, 0x00, 0x08,
  0x18, 0x00, 0x00, 0x00, 0x1c, 0x00, 0x00, 0x00, 0x00, 0x00, 0x06, 0x00,
  0x08, 0x00, 0x07, 0x00, 0x06, 0x00, 0x00, 0x00, 0x00, 0x00, 0x00, 0x01,
  0x01, 0x00, 0x00, 0x00, 0x07, 0x00, 0x00, 0x00, 0x03, 0x00, 0x00, 0x00,
  0x00, 0x00, 0x00, 0x00, 0x04, 0x00, 0x00, 0x00, 0x03, 0x00, 0x00, 0x00,
  0x01, 0x00, 0x00, 0x00, 0x09, 0x00, 0x00, 0x00, 0x01, 0x00, 0x00, 0x00,
  0x00, 0x00, 0x00, 0x00, 0x0a, 0x00, 0x00, 0x00, 0x8c, 0x03, 0x00, 0x00,
  0x1c, 0x03, 0x00, 0x00, 0xac, 0x02, 0x00, 0x00, 0x58, 0x02, 0x00, 0x00,
  0x10, 0x02, 0x00, 0x00, 0xc4, 0x01, 0x00, 0x00, 0x78, 0x01, 0x00, 0x00,
  0xf0, 0x00, 0x00, 0x00, 0x60, 0x00, 0x00, 0x00, 0x04, 0x00, 0x00, 0x00,
  0xb2, 0xfc, 0xff, 0xff, 0x00, 0x00, 0x00, 0x01, 0x14, 0x00, 0x00, 0x00,
  0x1c, 0x00, 0x00, 0x00, 0x1c, 0x00, 0x00, 0x00, 0x0a, 0x00, 0x00, 0x00,
  0x34, 0x00, 0x00, 0x00, 0x02, 0x00, 0x00, 0x00, 0xff, 0xff, 0xff, 0xff,
  0x01, 0x00, 0x00, 0x00, 0x9c, 0xfc, 0xff, 0xff, 0x19, 0x00, 0x00, 0x00,
  0x53, 0x74, 0x61, 0x74, 0x65, 0x66, 0x75, 0x6c, 0x50, 0x61, 0x72, 0x74,
  0x69, 0x74, 0x69, 0x6f, 0x6e, 0x65, 0x64, 0x43, 0x61, 0x6c, 0x6c, 0x3a,
  0x30, 0x00, 0x00, 0x00, 0x02, 0x00, 0x00, 0x00, 0x01, 0x00, 0x00, 0x00,
  0x01, 0x00, 0x00, 0x00, 0x0a, 0xfd, 0xff, 0xff, 0x00, 0x00, 0x00, 0x01,
  0x14, 0x00, 0x00, 0x00, 0x1c, 0x00, 0x00, 0x00, 0x1c, 0x00, 0x00, 0x00,
  0x09, 0x00, 0x00, 0x00, 0x68, 0x00, 0x00, 0x00, 0x02, 0x00, 0x00, 0x00,
  0xff, 0xff, 0xff, 0xff, 0x10, 0x00, 0x00, 0x00, 0xf4, 0xfc, 0xff, 0xff,
  0x4c, 0x00, 0x00, 0x00, 0x73, 0x65, 0x71, 0x75, 0x65, 0x6e, 0x74, 0x69,
  0x61, 0x6c, 0x2f, 0x64, 0x65, 0x6e, 0x73, 0x65, 0x5f, 0x31, 0x2f, 0x4d,
  0x61, 0x74, 0x4d, 0x75, 0x6c, 0x3b, 0x73, 0x65, 0x71, 0x75, 0x65, 0x6e,
  0x74, 0x69, 0x61, 0x6c, 0x2f, 0x64, 0x65, 0x6e, 0x73, 0x65, 0x5f, 0x31,
  0x2f, 0x52, 0x65, 0x6c, 0x75, 0x3b, 0x73, 0x65, 0x71, 0x75, 0x65, 0x6e,
  0x74, 0x69, 0x61, 0x6c, 0x2f, 0x64, 0x65, 0x6e, 0x73, 0x65, 0x5f, 0x31,
  0x2f, 0x42, 0x69, 0x61, 0x73, 0x41, 0x64, 0x64, 0x00, 0x00, 0x00, 0x00,
  0x02, 0x00, 0x00, 0x00, 0x01, 0x00, 0x00, 0x00, 0x10, 0x00, 0x00, 0x00,
  0x96, 0xfd, 0xff, 0xff, 0x00, 0x00, 0x00, 0x01, 0x14, 0x00, 0x00, 0x00,
  0x1c, 0x00, 0x00, 0x00, 0x1c, 0x00, 0x00, 0x00, 0x08, 0x00, 0x00, 0x00,
  0x60, 0x00, 0x00, 0x00, 0x02, 0x00, 0x00, 0x00, 0xff, 0xff, 0xff, 0xff,
  0x10, 0x00, 0x00, 0x00, 0x80, 0xfd, 0xff, 0xff, 0x46, 0x00, 0x00, 0x00,
  0x73, 0x65, 0x71, 0x75, 0x65, 0x6e, 0x74, 0x69, 0x61, 0x6c, 0x2f, 0x64,
  0x65, 0x6e, 0x73, 0x65, 0x2f, 0x4d, 0x61, 0x74, 0x4d, 0x75, 0x6c, 0x3b,
  0x73, 0x65, 0x71, 0x75, 0x65, 0x6e, 0x74, 0x69, 0x61, 0x6c, 0x2f, 0x64,
  0x65, 0x6e, 0x73, 0x65, 0x2f, 0x52, 0x65, 0x6c, 0x75, 0x3b, 0x73, 0x65,
  0x71, 0x75, 0x65, 0x6e, 0x74, 0x69, 0x61, 0x6c, 0x2f, 0x64, 0x65, 0x6e,
  0x73, 0x65, 0x2f, 0x42, 0x69, 0x61, 0x73, 0x41, 0x64, 0x64, 0x00, 0x00,
  0x02, 0x00, 0x00, 0x00, 0x01, 0x00, 0x00, 0x00, 0x10, 0x00, 0x00, 0x00,
  0x86, 0xfe, 0xff, 0xff, 0x00, 0x00, 0x00, 0x01, 0x10, 0x00, 0x00, 0x00,
  0x10, 0x00, 0x00, 0x00, 0x07, 0x00, 0x00, 0x00, 0x28, 0x00, 0x00, 0x00,
  0xf4, 0xfd, 0xff, 0xff, 0x19, 0x00, 0x00, 0x00, 0x73, 0x65, 0x71, 0x75,
  0x65, 0x6e, 0x74, 0x69, 0x61, 0x6c, 0x2f, 0x64, 0x65, 0x6e, 0x73, 0x65,
  0x5f, 0x32, 0x2f, 0x4d, 0x61, 0x74, 0x4d, 0x75, 0x6c, 0x00, 0x00, 0x00,
  0x02, 0x00, 0x00, 0x00, 0x01, 0x00, 0x00, 0x00, 0x10, 0x00, 0x00, 0x00,
  0xce, 0xfe, 0xff, 0xff, 0x00, 0x00, 0x00, 0x01, 0x10, 0x00, 0x00, 0x00,
  0x10, 0x00, 0x00, 0x00, 0x06, 0x00, 0x00, 0x00, 0x28, 0x00, 0x00, 0x00,
  0x3c, 0xfe, 0xff, 0xff, 0x19, 0x00, 0x00, 0x00, 0x73, 0x65, 0x71, 0x75,
  0x65, 0x6e, 0x74, 0x69, 0x61, 0x6c, 0x2f, 0x64, 0x65, 0x6e, 0x73, 0x65,
  0x5f, 0x31, 0x2f, 0x4d, 0x61, 0x74, 0x4d, 0x75, 0x6c, 0x00, 0x00, 0x00,
  0x02, 0x00, 0x00, 0x00, 0x10, 0x00, 0x00, 0x00, 0x10, 0x00, 0x00, 0x00,
  0x16, 0xff, 0xff, 0xff, 0x00, 0x00, 0x00, 0x01, 0x10, 0x00, 0x00, 0x00,
  0x10, 0x00, 0x00, 0x00, 0x05, 0x00, 0x00, 0x00, 0x24, 0x00, 0x00, 0x00,
  0x84, 0xfe, 0xff, 0xff, 0x17, 0x00, 0x00, 0x00, 0x73, 0x65, 0x71, 0x75,
  0x65, 0x6e, 0x74, 0x69, 0x61, 0x6c, 0x2f, 0x64, 0x65, 0x6e, 0x73, 0x65,
  0x2f, 0x4d, 0x61, 0x74, 0x4d, 0x75, 0x6c, 0x00, 0x02, 0x00, 0x00, 0x00,
  0x10, 0x00, 0x00, 0x00, 0x01, 0x00, 0x00, 0x00, 0x5a, 0xff, 0xff, 0xff,
  0x00, 0x00, 0x00, 0x01, 0x10, 0x00, 0x00, 0x00, 0x10, 0x00, 0x00, 0x00,
  0x04, 0x00, 0x00, 0x00, 0x34, 0x00, 0x00, 0x00, 0xc8, 0xfe, 0xff, 0xff,
  0x27, 0x00, 0x00, 0x00, 0x73, 0x65, 0x71, 0x75, 0x65, 0x6e, 0x74, 0x69,
  0x61, 0x6c, 0x2f, 0x64, 0x65, 0x6e, 0x73, 0x65, 0x2f, 0x42, 0x69, 0x61,
  0x73, 0x41, 0x64, 0x64, 0x2f, 0x52, 0x65, 0x61, 0x64, 0x56, 0x61, 0x72,
  0x69, 0x61, 0x62, 0x6c, 0x65, 0x4f, 0x70, 0x00, 0x01, 0x00, 0x00, 0x00,
  0x10, 0x00, 0x00, 0x00, 0xaa, 0xff, 0xff, 0xff, 0x00, 0x00, 0x00, 0x01,
  0x10, 0x00, 0x00, 0x00, 0x10, 0x00, 0x00, 0x00, 0x03, 0x00, 0x00, 0x00,
  0x38, 0x00, 0x00, 0x00, 0x18, 0xff, 0xff, 0xff, 0x29, 0x00, 0x00, 0x00,
  0x73, 0x65, 0x71, 0x75, 0x65, 0x6e, 0x74, 0x69, 0x61, 0x6c, 0x2f, 0x64,
  0x65, 0x6e, 0x73, 0x65, 0x5f, 0x32, 0x2f, 0x42, 0x69, 0x61, 0x73, 0x41,
  0x64, 0x64, 0x2f, 0x52, 0x65, 0x61, 0x64, 0x56, 0x61, 0x72, 0x69, 0x61,
  0x62, 0x6c, 0x65, 0x4f, 0x70, 0x00, 0x00, 0x00, 0x01, 0x00, 0x00, 0x00,
  0x01, 0x00, 0x00, 0x00, 0x00, 0x00, 0x16, 0x00, 0x18, 0x00, 0x14, 0x00,
  0x00, 0x00, 0x10, 0x00, 0x0c, 0x00, 0x08, 0x00, 0x00, 0x00, 0x00, 0x00,
  0x00, 0x00, 0x07, 0x00, 0x16, 0x00, 0x00, 0x00, 0x00, 0x00, 0x00, 0x01,
  0x10, 0x00, 0x00, 0x00, 0x10, 0x00, 0x00, 0x00, 0x02, 0x00, 0x00, 0x00,
  0x38, 0x00, 0x00, 0x00, 0x84, 0xff, 0xff, 0xff, 0x29, 0x00, 0x00, 0x00,
  0x73, 0x65, 0x71, 0x75, 0x65, 0x6e, 0x74, 0x69, 0x61, 0x6c, 0x2f, 0x64,
  0x65, 0x6e, 0x73, 0x65, 0x5f, 0x31, 0x2f, 0x42, 0x69, 0x61, 0x73, 0x41,
  0x64, 0x64, 0x2f, 0x52, 0x65, 0x61, 0x64, 0x56, 0x61, 0x72, 0x69, 0x61,
  0x62, 0x6c, 0x65, 0x4f, 0x70, 0x00, 0x00, 0x00, 0x01, 0x00, 0x00, 0x00,
  0x10, 0x00, 0x00, 0x00, 0x00, 0x00, 0x16, 0x00, 0x1c, 0x00, 0x18, 0x00,
  0x00, 0x00, 0x14, 0x00, 0x10, 0x00, 0x0c, 0x00, 0x00, 0x00, 0x00, 0x00,
  0x08, 0x00, 0x07, 0x00, 0x16, 0x00, 0x00, 0x00, 0x00, 0x00, 0x00, 0x01,
  0x14, 0x00, 0x00, 0x00, 0x20, 0x00, 0x00, 0x00, 0x20, 0x00, 0x00, 0x00,
  0x01, 0x00, 0x00, 0x00, 0x3c, 0x00, 0x00, 0x00, 0x02, 0x00, 0x00, 0x00,
  0xff, 0xff, 0xff, 0xff, 0x01, 0x00, 0x00, 0x00, 0x04, 0x00, 0x04, 0x00,
  0x04, 0x00, 0x00, 0x00, 0x1d, 0x00, 0x00, 0x00, 0x73, 0x65, 0x72, 0x76,
  0x69, 0x6e, 0x67, 0x5f, 0x64, 0x65, 0x66, 0x61, 0x75, 0x6c, 0x74, 0x5f,
  0x64, 0x65, 0x6e, 0x73, 0x65, 0x5f, 0x69, 0x6e, 0x70, 0x75, 0x74, 0x3a,
  0x30, 0x00, 0x00, 0x00, 0x02, 0x00, 0x00, 0x00, 0x01, 0x00, 0x00, 0x00,
  0x01, 0x00, 0x00, 0x00, 0x01, 0x00, 0x00, 0x00, 0x10, 0x00, 0x00, 0x00,
  0x0c, 0x00, 0x0c, 0x00, 0x0b, 0x00, 0x00, 0x00, 0x00, 0x00, 0x04, 0x00,
  0x0c, 0x00, 0x00, 0x00, 0x09, 0x00, 0x00, 0x00, 0x00, 0x00, 0x00, 0x09
 
};

#endif //SINE_MODEL_H